{
  "version": "1.0",
  "truncation": null,
  "padding": null,
  "added_tokens": [
    {
      "id": 0,
      "content": "<pad>",
      "single_word": false,
      "lstrip": false,
      "rstrip": false,
      "normalized": false,
      "special": true
    },
    {
      "id": 1,
      "content": "<s>",
      "single_word": false,
      "lstrip": false,
      "rstrip": false,
      "normalized": false,
      "special": true
    },
    {
      "id": 2,
      "content": "</s>",
      "single_word": false,
      "lstrip": false,
      "rstrip": false,
      "normalized": false,
      "special": true
    },
    {
      "id": 3,
      "content": "<unk>",
      "single_word": false,
      "lstrip": false,
      "rstrip": false,
      "normalized": false,
      "special": true
    },
    {
      "id": 4,
      "content": "<mask>",
      "single_word": false,
      "lstrip": true,
      "rstrip": false,
      "normalized": false,
      "special": true
    }
  ],
  "normalizer": null,
  "pre_tokenizer": {
    "type": "ByteLevel",
    "add_prefix_space": false,
    "trim_offsets": true,
    "use_regex": true
  },
  "post_processor": null,
  "decoder": {
    "type": "ByteLevel",
    "add_prefix_space": true,
    "trim_offsets": true,
    "use_regex": true
  },
  "model": {
    "type": "BPE",
    "dropout": null,
    "unk_token": null,
    "continuing_subword_prefix": null,
    "end_of_word_suffix": null,
    "fuse_unk": false,
    "byte_fallback": false,
    "ignore_merges": false,
    "vocab": {
      "<pad>": 0,
      "<s>": 1,
      "</s>": 2,
      "<unk>": 3,
      "<mask>": 4,
      "!": 5,
      "\"": 6,
      "#": 7,
      "$": 8,
      "%": 9,
      "&": 10,
      "'": 11,
      "(": 12,
      ")": 13,
      "*": 14,
      "+": 15,
      ",": 16,
      "-": 17,
      ".": 18,
      "/": 19,
      "0": 20,
      "1": 21,
      "2": 22,
      "3": 23,
      "4": 24,
      "5": 25,
      "6": 26,
      "7": 27,
      "8": 28,
      "9": 29,
      ":": 30,
      ";": 31,
      "<": 32,
      "=": 33,
      ">": 34,
      "?": 35,
      "@": 36,
      "A": 37,
      "B": 38,
      "C": 39,
      "D": 40,
      "E": 41,
      "F": 42,
      "G": 43,
      "H": 44,
      "I": 45,
      "J": 46,
      "K": 47,
      "L": 48,
      "M": 49,
      "N": 50,
      "O": 51,
      "P": 52,
      "Q": 53,
      "R": 54,
      "S": 55,
      "T": 56,
      "U": 57,
      "V": 58,
      "W": 59,
      "X": 60,
      "Y": 61,
      "Z": 62,
      "[": 63,
      "\\": 64,
      "]": 65,
      "^": 66,
      "_": 67,
      "`": 68,
      "a": 69,
      "b": 70,
      "c": 71,
      "d": 72,
      "e": 73,
      "f": 74,
      "g": 75,
      "h": 76,
      "i": 77,
      "j": 78,
      "k": 79,
      "l": 80,
      "m": 81,
      "n": 82,
      "o": 83,
      "p": 84,
      "q": 85,
      "r": 86,
      "s": 87,
      "t": 88,
      "u": 89,
      "v": 90,
      "w": 91,
      "x": 92,
      "y": 93,
      "z": 94,
      "{": 95,
      "|": 96,
      "}": 97,
      "~": 98,
      "¡": 99,
      "¢": 100,
      "£": 101,
      "¤": 102,
      "¥": 103,
      "¦": 104,
      "§": 105,
      "¨": 106,
      "©": 107,
      "ª": 108,
      "«": 109,
      "¬": 110,
      "®": 111,
      "¯": 112,
      "°": 113,
      "±": 114,
      "²": 115,
      "³": 116,
      "´": 117,
      "µ": 118,
      "¶": 119,
      "·": 120,
      "¸": 121,
      "¹": 122,
      "º": 123,
      "»": 124,
      "¼": 125,
      "½": 126,
      "¾": 127,
      "¿": 128,
      "À": 129,
      "Á": 130,
      "Â": 131,
      "Ã": 132,
      "Ä": 133,
      "Å": 134,
      "Æ": 135,
      "Ç": 136,
      "È": 137,
      "É": 138,
      "Ê": 139,
      "Ë": 140,
      "Ì": 141,
      "Í": 142,
      "Î": 143,
      "Ï": 144,
      "Ð": 145,
      "Ñ": 146,
      "Ò": 147,
      "Ó": 148,
      "Ô": 149,
      "Õ": 150,
      "Ö": 151,
      "×": 152,
      "Ø": 153,
      "Ù": 154,
      "Ú": 155,
      "Û": 156,
      "Ü": 157,
      "Ý": 158,
      "Þ": 159,
      "ß": 160,
      "à": 161,
      "á": 162,
      "â": 163,
      "ã": 164,
      "ä": 165,
      "å": 166,
      "æ": 167,
      "ç": 168,
      "è": 169,
      "é": 170,
      "ê": 171,
      "ë": 172,
      "ì": 173,
      "í": 174,
      "î": 175,
      "ï": 176,
      "ð": 177,
      "ñ": 178,
      "ò": 179,
      "ó": 180,
      "ô": 181,
      "õ": 182,
      "ö": 183,
      "÷": 184,
      "ø": 185,
      "ù": 186,
      "ú": 187,
      "û": 188,
      "ü": 189,
      "ý": 190,
      "þ": 191,
      "ÿ": 192,
      "Ā": 193,
      "ā": 194,
      "Ă": 195,
      "ă": 196,
      "Ą": 197,
      "ą": 198,
      "Ć": 199,
      "ć": 200,
      "Ĉ": 201,
      "ĉ": 202,
      "Ċ": 203,
      "ċ": 204,
      "Č": 205,
      "č": 206,
      "Ď": 207,
      "ď": 208,
      "Đ": 209,
      "đ": 210,
      "Ē": 211,
      "ē": 212,
      "Ĕ": 213,
      "ĕ": 214,
      "Ė": 215,
      "ė": 216,
      "Ę": 217,
      "ę": 218,
      "Ě": 219,
      "ě": 220,
      "Ĝ": 221,
      "ĝ": 222,
      "Ğ": 223,
      "ğ": 224,
      "Ġ": 225,
      "ġ": 226,
      "Ģ": 227,
      "ģ": 228,
      "Ĥ": 229,
      "ĥ": 230,
      "Ħ": 231,
      "ħ": 232,
      "Ĩ": 233,
      "ĩ": 234,
      "Ī": 235,
      "ī": 236,
      "Ĭ": 237,
      "ĭ": 238,
      "Į": 239,
      "į": 240,
      "İ": 241,
      "ı": 242,
      "Ĳ": 243,
      "ĳ": 244,
      "Ĵ": 245,
      "ĵ": 246,
      "Ķ": 247,
      "ķ": 248,
      "ĸ": 249,
      "Ĺ": 250,
      "ĺ": 251,
      "Ļ": 252,
      "ļ": 253,
      "Ľ": 254,
      "ľ": 255,
      "Ŀ": 256,
      "ŀ": 257,
      "Ł": 258,
      "ł": 259,
      "Ń": 260,
      "Ġ)": 261,
      "Ġ(": 262,
      "Ġ\\": 263,
      "Ġ_": 264,
      "Ġ^": 265,
      "Ġ\\)": 266,
      "Ġ\\(": 267,
      "Ġ2": 268,
      "ac": 269,
      "Ġ1": 270,
      "Ġ,": 271,
      "Ġ=": 272,
      "Ġp": 273,
      "ig": 274,
      "Ġs": 275,
      "Ġ\\,": 276,
      "al": 277,
      "Ġ-": 278,
      "Ġt": 279,
      "Ġu": 280,
      "Ġf": 281,
      "ht": 282,
      "rig": 283,
      "right": 284,
      "Ġ0": 285,
      "Ġd": 286,
      "pright": 287,
      "Ġi": 288,
      "Ġupright": 289,
      "rac": 290,
      "Ġ+": 291,
      "Ġfrac": 292,
      "Ġb": 293,
      "Ġl": 294,
      "Ġm": 295,
      "ta": 296,
      "Ġn": 297,
      "no": 298,
      "Ġc": 299,
      "Ġx": 300,
      "ld": 301,
      "Ġz": 302,
      "Ġe": 303,
      "ak": 304,
      "re": 305,
      "Ġa": 306,
      "bre": 307,
      "pac": 308,
      "nobre": 309,
      "pace": 310,
      "nobreak": 311,
      "Ġspace": 312,
      "me": 313,
      "Ġ.": 314,
      "old": 315,
      "Ġk": 316,
      "Ġr": 317,
      "ro": 318,
      "Ġlr": 319,
      "ma": 320,
      "ha": 321,
      "Ġbold": 322,
      "ws": 323,
      "el": 324,
      "Ġzws": 325,
      "rt": 326,
      "Ġal": 327,
      "hi": 328,
      "Ġo": 329,
      "am": 330,
      "eta": 331,
      "Ġ3": 332,
      "Ġ|": 333,
      "Ġj": 334,
      "Ġ#": 335,
      "ime": 336,
      "ron": 337,
      "Ġg": 338,
      "Ġdel": 339,
      "Ġ\\/": 340,
      "si": 341,
      "art": 342,
      "ial": 343,
      "artial": 344,
      "Ġpartial": 345,
      "Ġ4": 346,
      "ot": 347,
      "Ġmu": 348,
      "pha": 349,
      "alt": 350,
      "ga": 351,
      "mega": 352,
      "Ġalpha": 353,
      "Ġ\\]": 354,
      "Ġdot": 355,
      "ĠD": 356,
      "ĠA": 357,
      "Ġq": 358,
      "ĠT": 359,
      "ĠP": 360,
      "ne": 361,
      "Ġ\\[": 362,
      "rime": 363,
      "Ġprime": 364,
      "Ġy": 365,
      "ĠN": 366,
      "ĠR": 367,
      "ĠL": 368,
      "amma": 369,
      "hat": 370,
      "ild": 371,
      "ilde": 372,
      "he": 373,
      "vron": 374,
      "hevron": 375,
      "heta": 376,
      "Ġphi": 377,
      "da": 378,
      "bda": 379,
      "ambda": 380,
      "ĠS": 381,
      "ĠB": 382,
      "igma": 383,
      "Ġhat": 384,
      "Ġpi": 385,
      "Ġchevron": 386,
      "Ġv": 387,
      "im": 388,
      "um": 389,
      "ign": 390,
      "none": 391,
      "Ġalign": 392,
      "Ġdelim": 393,
      "Ġin": 394,
      "Ġomega": 395,
      "Ġtheta": 396,
      "Ġtilde": 397,
      "on": 398,
      "psi": 399,
      "ĠG": 400,
      "ĠE": 401,
      "Ġcal": 402,
      "Ġsum": 403,
      "er": 404,
      "Ġnu": 405,
      "lon": 406,
      "ho": 407,
      "Ġ;": 408,
      "Ġ5": 409,
      "psilon": 410,
      "qrt": 411,
      "us": 412,
      "ĠC": 413,
      "ĠM": 414,
      "Ġsigma": 415,
      "Ġbeta": 416,
      "elta": 417,
      "Ġh": 418,
      "Ġlambda": 419,
      "Ġsqrt": 420,
      "in": 421,
      "ĠF": 422,
      "ĠH": 423,
      "Ġrho": 424,
      "Ġepsilon": 425,
      "Ġdelta": 426,
      "ral": 427,
      "Ġgamma": 428,
      "Ġta": 429,
      "acron": 430,
      "ĠV": 431,
      "Ġtau": 432,
      "Ġw": 433,
      "eg": 434,
      "teg": 435,
      "tegral": 436,
      "ĠI": 437,
      "ĠX": 438,
      "Ġthi": 439,
      "Ġ6": 440,
      "Ġmacron": 441,
      "ĠO": 442,
      "Ġintegral": 443,
      "rro": 444,
      "rrow": 445,
      "imes": 446,
      "Ġtimes": 447,
      "Ġ<": 448,
      "Ġpl": 449,
      "pp": 450,
      "Ġarrow": 451,
      "Ġpsi": 452,
      "ĠDelta": 453,
      "le": 454,
      "Ġdots": 455,
      "mat": 456,
      "Ġ8": 457,
      "at": 458,
      "Ġmat": 459,
      "Ġeta": 460,
      "ĠQ": 461,
      "ĠU": 462,
      "Ġxi": 463,
      "ĠK": 464,
      "Ġ\\}": 465,
      "Ġ\\{": 466,
      "frac": 467,
      "os": 468,
      "ck": 469,
      "inus": 470,
      "ĠJ": 471,
      "Ġplus": 472,
      "Ġoo": 473,
      "Ġ7": 474,
      "ine": 475,
      "line": 476,
      "erline": 477,
      "Ġthin": 478,
      "minus": 479,
      "ft": 480,
      "left": 481,
      "ĠGamma": 482,
      "la": 483,
      "Ġ>": 484,
      "ua": 485,
      "uad": 486,
      "Ġquad": 487,
      "Ġ9": 488,
      "app": 489,
      "bold": 490,
      "appa": 491,
      "ĠW": 492,
      "ĠOmega": 493,
      "ab": 494,
      "abla": 495,
      "\\(": 496,
      "verline": 497,
      "Ġcos": 498,
      "Ġkappa": 499,
      "Ġsin": 500,
      "Ġ->": 501,
      "ĠZ": 502,
      "Ġ\\;": 503,
      "iv": 504,
      "Ġnabla": 505,
      "cal": 506,
      "Ġoverline": 507,
      "Ġbb": 508,
      "an": 509,
      "lr": 510,
      "ll": 511,
      "Ġell": 512,
      "Ġ<=": 513,
      "de": 514,
      "gg": 515,
      "gger": 516,
      "ide": 517,
      "ĠPhi": 518,
      "Ġda": 519,
      "Ġdagger": 520,
      "Ġthick": 521,
      "Ġchi": 522,
      "ĠY": 523,
      "qu": 524,
      "quiv": 525,
      "Ġ:": 526,
      "rox": 527,
      "Ġequiv": 528,
      "tilde": 529,
      "Ġ||": 530,
      "Ġapp": 531,
      "Ġapprox": 532,
      "upright": 533,
      "ĠLambda": 534,
      "xp": 535,
      "Ġzeta": 536,
      "Ġ!": 537,
      "ĠPsi": 538,
      "Ġexp": 539,
      "Ġwide": 540,
      "Delta": 541,
      "ter": 542,
      "Ġplan": 543,
      "Ġplanck": 544,
      "Ġln": 545,
      "nd": 546,
      "ce": 547,
      "nter": 548,
      "center": 549,
      "ub": 550,
      "Ġpro": 551,
      "do": 552,
      "delta": 553,
      "chevron": 554,
      "Ġ>=": 555,
      "og": 556,
      "ĠSigma": 557,
      "Ġlog": 558,
      "st": 559,
      "phi": 560,
      "erp": 561,
      "Ġperp": 562,
      "\\[": 563,
      "uble": 564,
      "double": 565,
      "eq": 566,
      "Ġop": 567,
      "sigma": 568,
      "uc": 569,
      "duc": 570,
      "duct": 571,
      "alpha": 572,
      "rho": 573,
      "rall": 574,
      "Ġand": 575,
      "Ġco": 576,
      "\\{": 577,
      "Ġast": 578,
      "sum": 579,
      "omega": 580,
      "mp": 581,
      "epsilon": 582,
      "Ġproduct": 583,
      "ose": 584,
      "Ġcomp": 585,
      "Ġcompose": 586,
      "lambda": 587,
      "ĠPi": 588,
      "Ġdiv": 589,
      "Ġ\"": 590,
      "integral": 591,
      "rak": 592,
      "ĠTheta": 593,
      "partial": 594,
      "tar": 595,
      "macron": 596,
      "Ġ!=": 597,
      "Ġstar": 598,
      "gamma": 599,
      "ides": 600,
      "Ġ_(": 601,
      "Ġdivides": 602,
      "Ġlt": 603,
      "dot": 604,
      "tau": 605,
      "mu": 606,
      "Ġfrak": 607,
      "Ġ\\*": 608,
      "op": 609,
      "Gamma": 610,
      "arall": 611,
      "arallel": 612,
      "Ġparallel": 613,
      "zws": 614,
      "beta": 615,
      "nderline": 616,
      "ans": 617,
      "Ġsans": 618,
      "->": 619,
      "theta": 620,
      "arrow": 621,
      "Ġprop": 622,
      "Ġ'": 623,
      "Omega": 624,
      "Ġâ": 625,
      "Ġunderline": 626,
      "et": 627,
      "sqrt": 628,
      "overline": 629,
      "chi": 630,
      "lus": 631,
      "plus": 632,
      "Phi": 633,
      "Ġ^(": 634,
      "xi": 635,
      "nabla": 636,
      "set": 637,
      "Ġsinh": 638,
      "bb": 639,
      "ĠâĮ": 640,
      "Ġminus": 641,
      "Ġgt": 642,
      "Ġtan": 643,
      "kappa": 644,
      "nu": 645,
      "Ġcosh": 646,
      "ubset": 647,
      "ion": 648,
      "Ġsubset": 649,
      "ed": 650,
      "nion": 651,
      "Psi": 652,
      "Ġunion": 653,
      "ino": 654,
      "inom": 655,
      "orall": 656,
      "pi": 657,
      "Ġ<-": 658,
      "Ġinter": 659,
      "it": 660,
      "if": 661,
      "aron": 662,
      "Ġ|->": 663,
      "zeta": 664,
      "Ġbinom": 665,
      "wn": 666,
      "Ġtop": 667,
      "down": 668,
      "and": 669,
      "ic": 670,
      "alic": 671,
      "Ġ)|": 672,
      "Lambda": 673,
      "sla": 674,
      "ked": 675,
      "tan": 676,
      "roked": 677,
      "stroked": 678,
      "ri": 679,
      "con": 680,
      "cont": 681,
      "gle": 682,
      "Ġmo": 683,
      "sin": 684,
      "Ġcaron": 685,
      "Ġforall": 686,
      "ĠXi": 687,
      "ota": 688,
      "Ġar": 689,
      "big": 690,
      "or": 691,
      "talic": 692,
      "Ġitalic": 693,
      "Ġ)\\": 694,
      "Ġ%": 695,
      "Sigma": 696,
      "angle": 697,
      "Pi": 698,
      "Ġ))": 699,
      "riangle": 700,
      "ell": 701,
      "Ġiota": 702,
      "equiv": 703,
      "Ġcot": 704,
      "ss": 705,
      "less": 706,
      "Ġbot": 707,
      "Ġdotless": 708,
      "||": 709,
      "ut": 710,
      "Ġor": 711,
      "Ġ<->": 712,
      "Ġarc": 713,
      "^(": 714,
      "for": 715,
      "nt": 716,
      "Ġ-->": 717,
      "Ġtriangle": 718,
      "cos": 719,
      "Ġnot": 720,
      "sh": 721,
      "Ġmono": 722,
      "slant": 723,
      "hout": 724,
      "ithout": 725,
      "Ġwithout": 726,
      "lle": 727,
      "frak": 728,
      "Theta": 729,
      "ulle": 730,
      "ullet": 731,
      "Ġbullet": 732,
      "Ġlim": 733,
      "ack": 734,
      "Ġarctan": 735,
      "pro": 736,
      "exp": 737,
      "rev": 738,
      "Ġ=>": 739,
      "ln": 740,
      "ĠâĮĭ": 741,
      "Ġ)\\)": 742,
      "Ġmed": 743,
      "Ġ)\\(": 744,
      "ĠâĮĬ": 745,
      "approx": 746,
      "Ġ)^(": 747,
      "product": 748,
      "log": 749,
      "=>": 750,
      "_(": 751,
      "ĠUpsilon": 752,
      "its": 753,
      "slash": 754,
      "ackslash": 755,
      "Ġbackslash": 756,
      "ĠRe": 757,
      "ket": 758,
      "racket": 759,
      "ĠâĮī": 760,
      "not": 761,
      "Ġbrev": 762,
      "Ġbreve": 763,
      "Ġdet": 764,
      "Ġ\\\"": 765,
      "Ġcolon": 766,
      "forall": 767,
      "pla": 768,
      "times": 769,
      "Ġ)\\,": 770,
      "Ġlimits": 771,
      "ng": 772,
      "Ġ)_(": 773,
      "hing": 774,
      "Ġ\\_": 775,
      "ec": 776,
      "oot": 777,
      "Ġroot": 778,
      "ĠâĮĪ": 779,
      "is": 780,
      "Ġnothing": 781,
      "Ġupsilon": 782,
      "Ġha": 783,
      "Ġmod": 784,
      "nck": 785,
      "Ġ)=": 786,
      "Ġbracket": 787,
      "planck": 788,
      "Ġ==>": 789,
      "sts": 790,
      "ĠâĬ": 791,
      "ĠâĻ": 792,
      "xists": 793,
      "mal": 794,
      "smal": 795,
      "small": 796,
      "underline": 797,
      "Ġsec": 798,
      "\\,": 799,
      "dots": 800,
      "rw": 801,
      "herw": 802,
      "long": 803,
      "ise": 804,
      "herwise": 805,
      "otherwise": 806,
      "Ġcoth": 807,
      "up": 808,
      "ar": 809,
      "Ħĺ": 810,
      "Ġhash": 811,
      "upset": 812,
      "whe": 813,
      "Ġeq": 814,
      "ĠâĬº": 815,
      "sc": 816,
      "Ġ),": 817,
      "ĠIm": 818,
      "binom": 819,
      "Ġ\\)|": 820,
      "Ġsupset": 821,
      "Ġarg": 822,
      "caron": 823,
      "where": 824,
      "\\)": 825,
      "Ġ<=>": 826,
      "ĠâĦĺ": 827,
      "Ġ)-": 828,
      "rip": 829,
      "ĠâĻ¯": 830,
      "Ġ)+": 831,
      "Ġ\\))": 832,
      "Ġtack": 833,
      "italic": 834,
      "lim": 835,
      "Ġexists": 836,
      "Xi": 837,
      "sq": 838,
      "Ġarcsin": 839,
      "cot": 840,
      "gt": 841,
      "div": 842,
      "ep": 843,
      "Ġinline": 844,
      "eph": 845,
      "triangle": 846,
      "Ġdim": 847,
      "divides": 848,
      "<=": 849,
      "lt": 850,
      "ngle": 851,
      "Ġ).": 852,
      "Ġcsc": 853,
      "Ġangle": 854,
      "Ġâī": 855,
      "Ġ\\)=": 856,
      "prop": 857,
      "bar": 858,
      "iota": 859,
      "rec": 860,
      "Ġ^(-": 861,
      "ĠâīĲ": 862,
      "uare": 863,
      "exists": 864,
      "iam": 865,
      "âĮ": 866,
      "Ġaleph": 867,
      "ond": 868,
      "iamond": 869,
      "trip": 870,
      "triple": 871,
      "Upsilon": 872,
      "ok": 873,
      "ve": 874,
      "Ġprec": 875,
      "Ġdiamond": 876,
      "hook": 877,
      "Ġ<==>": 878,
      "Re": 879,
      "po": 880,
      "acut": 881,
      "Ġ^(\\(": 882,
      "arc": 883,
      "square": 884,
      "acute": 885,
      "rpo": 886,
      "dagger": 887,
      "Ġ))|": 888,
      "ĠâĻŃ": 889,
      "rpoon": 890,
      "Ġ\\@": 891,
      "Ġ<-->": 892,
      "bracket": 893,
      "dim": 894,
      "Ġacute": 895,
      "oo": 896,
      "Ġ\\)^(": 897,
      "Ġker": 898,
      "ucc": 899,
      "Ġ))\\,": 900,
      "Ġ)\\)^(": 901,
      "Im": 902,
      "det": 903,
      "Ġ_(-": 904,
      "Ġ)\\,|": 905,
      "ript": 906,
      "arctan": 907,
      "mo": 908,
      "prime": 909,
      "sec": 910,
      "tion": 911,
      "Ġdeg": 912,
      "neq": 913,
      "\\*": 914,
      "\\/": 915,
      "lb": 916,
      "Ġamp": 917,
      "Ġ)\\))": 918,
      "Ġ)\\)|": 919,
      "Ġharpoon": 920,
      "co": 921,
      "Ġdis": 922,
      "rtlb": 923,
      "rrows": 924,
      "Ġ'^(": 925,
      "Ġ^('": 926,
      "play": 927,
      "mono": 928,
      "Ġdisplay": 929,
      "quad": 930,
      "star": 931,
      "union": 932,
      "sinh": 933,
      "Ġ)))": 934,
      "cosh": 935,
      "âĮĪ": 936,
      "\\*)": 937,
      "Ġharpoons": 938,
      "')": 939,
      ">=": 940,
      "rl": 941,
      "upsilon": 942,
      "Ġsucc": 943,
      "breve": 944,
      "hash": 945,
      "els": 946,
      "Ġ))'": 947,
      "Ġsection": 948,
      "(\\(": 949,
      "cro": 950,
      "lcro": 951,
      "Ġssc": 952,
      "root": 953,
      "inter": 954,
      "Ġ^('')": 955,
      "lcrow": 956,
      "Ġsscript": 957,
      "csc": 958,
      "space": 959,
      "Ġ\\)+": 960,
      "Ġarrows": 961,
      "Ġpilcrow": 962,
      "dotless": 963,
      "Ġ'\\,": 964,
      "Ġ)).": 965,
      "ĠâĬ©": 966,
      "deg": 967,
      "âĦĺ": 968,
      "Ġ\\)-": 969,
      "Ġ\\)\\)": 970,
      "inline": 971,
      "Ġ'\\)": 972,
      "Ġ))=": 973,
      "Ġ)\\).": 974,
      "Ġ)\\)=": 975,
      "Ġmodels": 976,
      "Ġ),|": 977,
      "limits": 978,
      "âĮĬ": 979,
      "âī": 980,
      "Ġ)'": 981,
      "Ġ)>": 982,
      "Ġ)\\[": 983,
      "aleph": 984,
      "Ġ''": 985,
      "Ġ<--": 986,
      "Ġ))_(": 987,
      "nothing": 988,
      "Ġ))'\\,": 989,
      "IF": 990,
      "ker": 991,
      "lve": 992,
      "olve": 993,
      "subset": 994,
      "volve": 995,
      "âĪ": 996,
      "âĬ": 997,
      "Ġ\\,|": 998,
      "ment": 999,
      "lement": 1000,
      "Ġ^(\\*)": 1001,
      "Ġ))\\)": 1002,
      "when": 1003,
      "comp": 1004,
      "âĪļ": 1005,
      "(|": 1006,
      "\\;": 1007,
      "\\]": 1008,
      "ast": 1009,
      "cript": 1010,
      "prec": 1011,
      "quare": 1012,
      "sans": 1013,
      "supset": 1014,
      "succ": 1015,
      "wide": 1016,
      "Ġ\\âĪļ": 1017,
      "Ġ\\),": 1018,
      "Ġscript": 1019,
      "Ġsquare": 1020,
      "Ġmin": 1021,
      "Ġcon": 1022,
      "harpoon": 1023,
      "\\(<": 1024,
      "Ġ_(+": 1025,
      "Ġ)\\]": 1026,
      "Ġ)^(\\(": 1027,
      "Ġ\\))=": 1028,
      "Ġ\\))|": 1029,
      "Ġ\\))\\(": 1030,
      "Ġ)))\\(<": 1031,
      "Ġ))_(-": 1032,
      "Ġconvolve": 1033,
      "ad": 1034,
      "fi": 1035,
      "il": 1036,
      "ohe": 1037,
      "rk": 1038,
      "tw": 1039,
      "tack": 1040,
      "ªħ": 1041,
      "Ġ\\).": 1042,
      "tail": 1043,
      "mark": 1044,
      "heck": 1045,
      "eth": 1046,
      "Ġ^(+": 1047,
      "Ġ)||": 1048,
      "lled": 1049,
      "Ġ)^(-": 1050,
      "Ġ),\\(": 1051,
      "arcsin": 1052,
      "filled": 1053,
      "ohead": 1054,
      "twohead": 1055,
      "heckmark": 1056,
      "(-": 1057,
      "ave": 1058,
      "arrows": 1059,
      "diamond": 1060,
      "parallel": 1061,
      "tri": 1062,
      "âª": 1063,
      "âĦ": 1064,
      "Ġ?": 1065,
      "ĭĪ": 1066,
      "Ġ\\)\\(": 1067,
      "Ġ\\)\\,": 1068,
      "Ġ\\)\\]": 1069,
      "Ġ\\,-": 1070,
      "Ġcheckmark": 1071,
      "ĠChi": 1072,
      "Ġcomplement": 1073,
      "Ġ'|": 1074,
      "Ġ'\\;": 1075,
      "Ġâªħ": 1076,
      "Ġ))\\(": 1077,
      "Ġ))^(": 1078,
      "Ġ)^(\\*)": 1079,
      "ĠâĻ®": 1080,
      "arg": 1081,
      "coth": 1082,
      "section": 1083,
      "Ġ)\\))\\,": 1084,
      "Ġ^('')+": 1085,
      "Ġ'\\)=": 1086,
      "Ġ'\\)^(": 1087,
      "compose": 1088,
      "!=": 1089,
      ")\\(": 1090,
      "<=>": 1091,
      "br": 1092,
      "bullet": 1093,
      "cw": 1094,
      "cle": 1095,
      "fo": 1096,
      "hal": 1097,
      "ir": 1098,
      "rave": 1099,
      "tr": 1100,
      "uit": 1101,
      "âĻ": 1102,
      "Ġ,|": 1103,
      "Ġ,\\(": 1104,
      "Ġbeth": 1105,
      "Ġlg": 1106,
      "reat": 1107,
      "refo": 1108,
      "Ġgrave": 1109,
      "Ġ\\]_(": 1110,
      "herefo": 1111,
      "Ġ'\\(": 1112,
      "ĠâĭĪ": 1113,
      "ĠâĮ£": 1114,
      "Ġ)\\}": 1115,
      "Ġ))-": 1116,
      "Ġ)\\)-": 1117,
      "Ġ)\\)\\(": 1118,
      "Ġ)\\)\\,": 1119,
      "\\)|": 1120,
      "Ġ\\))\\,": 1121,
      "Ġ\\)\\)^(": 1122,
      "complement": 1123,
      "âĦ¸": 1124,
      "Ġ)^(\\*)\\)": 1125,
      "half": 1126,
      "ircle": 1127,
      "reath": 1128,
      "herefore": 1129,
      ").": 1130,
      ",|": 1131,
      "<-": 1132,
      "==>": 1133,
      "Nu": 1134,
      "\\_": 1135,
      "ax": 1136,
      "ade": 1137,
      "bl": 1138,
      "beth": 1139,
      "cu": 1140,
      "circle": 1141,
      "gl": 1142,
      "hre": 1143,
      "lo": 1144,
      "ntilde": 1145,
      "napprox": 1146,
      "pade": 1147,
      "squ": 1148,
      "suit": 1149,
      "spade": 1150,
      "tl": 1151,
      "thre": 1152,
      "und": 1153,
      "yright": 1154,
      "©ŀ": 1155,
      "«ħ": 1156,
      "ÃĨ": 1157,
      "âĨ": 1158,
      "ĠÃĨ": 1159,
      "ķ²": 1160,
      "iggl": 1161,
      "Ġtherefore": 1162,
      "Ġmax": 1163,
      "Ġ\\]|": 1164,
      "nequiv": 1165,
      "hom": 1166,
      "inv": 1167,
      "Ġwreath": 1168,
      "Ġdash": 1169,
      "Ġ\\*\\,": 1170,
      "Ġâķ²": 1171,
      "Ġ)\\/": 1172,
      "ĠâĬĺ": 1173,
      "Ġ),||": 1174,
      "Ġ\\))\\)|": 1175,
      "Ġâīį": 1176,
      "Ġ^(\\(-": 1177,
      "Ġ)\\)^(-": 1178,
      "mod": 1179,
      "Ġ)\\))\\(": 1180,
      "Ġ)))|": 1181,
      "rly": 1182,
      "else": 1183,
      "Ġ^('')\\(": 1184,
      "Ġ\\)-->": 1185,
      "Ġ\\)\\)=": 1186,
      "Ġ)'-": 1187,
      "Ġ''=": 1188,
      "Ġ''\\(": 1189,
      "Ġ''\\[": 1190,
      "Ġ))\\)|": 1191,
      "harpoons": 1192,
      "Ġ\\)\\)^(\\[": 1193,
      "curly": 1194,
      "loop": 1195,
      "squiggl": 1196,
      "three": 1197,
      "squiggly": 1198
    },
    "merges": [
      [
        "Ġ",
        ")"
      ],
      [
        "Ġ",
        "("
      ],
      [
        "Ġ",
        "\\"
      ],
      [
        "Ġ",
        "_"
      ],
      [
        "Ġ",
        "^"
      ],
      [
        "Ġ\\",
        ")"
      ],
      [
        "Ġ\\",
        "("
      ],
      [
        "Ġ",
        "2"
      ],
      [
        "a",
        "c"
      ],
      [
        "Ġ",
        "1"
      ],
      [
        "Ġ",
        ","
      ],
      [
        "Ġ",
        "="
      ],
      [
        "Ġ",
        "p"
      ],
      [
        "i",
        "g"
      ],
      [
        "Ġ",
        "s"
      ],
      [
        "Ġ\\",
        ","
      ],
      [
        "a",
        "l"
      ],
      [
        "Ġ",
        "-"
      ],
      [
        "Ġ",
        "t"
      ],
      [
        "Ġ",
        "u"
      ],
      [
        "Ġ",
        "f"
      ],
      [
        "h",
        "t"
      ],
      [
        "r",
        "ig"
      ],
      [
        "rig",
        "ht"
      ],
      [
        "Ġ",
        "0"
      ],
      [
        "Ġ",
        "d"
      ],
      [
        "p",
        "right"
      ],
      [
        "Ġ",
        "i"
      ],
      [
        "Ġu",
        "pright"
      ],
      [
        "r",
        "ac"
      ],
      [
        "Ġ",
        "+"
      ],
      [
        "Ġf",
        "rac"
      ],
      [
        "Ġ",
        "b"
      ],
      [
        "Ġ",
        "l"
      ],
      [
        "Ġ",
        "m"
      ],
      [
        "t",
        "a"
      ],
      [
        "Ġ",
        "n"
      ],
      [
        "n",
        "o"
      ],
      [
        "Ġ",
        "c"
      ],
      [
        "Ġ",
        "x"
      ],
      [
        "l",
        "d"
      ],
      [
        "Ġ",
        "z"
      ],
      [
        "Ġ",
        "e"
      ],
      [
        "a",
        "k"
      ],
      [
        "r",
        "e"
      ],
      [
        "Ġ",
        "a"
      ],
      [
        "b",
        "re"
      ],
      [
        "p",
        "ac"
      ],
      [
        "no",
        "bre"
      ],
      [
        "pac",
        "e"
      ],
      [
        "nobre",
        "ak"
      ],
      [
        "Ġs",
        "pace"
      ],
      [
        "m",
        "e"
      ],
      [
        "Ġ",
        "."
      ],
      [
        "o",
        "ld"
      ],
      [
        "Ġ",
        "k"
      ],
      [
        "Ġ",
        "r"
      ],
      [
        "r",
        "o"
      ],
      [
        "Ġl",
        "r"
      ],
      [
        "m",
        "a"
      ],
      [
        "h",
        "a"
      ],
      [
        "Ġb",
        "old"
      ],
      [
        "w",
        "s"
      ],
      [
        "e",
        "l"
      ],
      [
        "Ġz",
        "ws"
      ],
      [
        "r",
        "t"
      ],
      [
        "Ġ",
        "al"
      ],
      [
        "h",
        "i"
      ],
      [
        "Ġ",
        "o"
      ],
      [
        "a",
        "m"
      ],
      [
        "e",
        "ta"
      ],
      [
        "Ġ",
        "3"
      ],
      [
        "Ġ",
        "|"
      ],
      [
        "Ġ",
        "j"
      ],
      [
        "Ġ",
        "#"
      ],
      [
        "i",
        "me"
      ],
      [
        "ro",
        "n"
      ],
      [
        "Ġ",
        "g"
      ],
      [
        "Ġd",
        "el"
      ],
      [
        "Ġ\\",
        "/"
      ],
      [
        "s",
        "i"
      ],
      [
        "a",
        "rt"
      ],
      [
        "i",
        "al"
      ],
      [
        "art",
        "ial"
      ],
      [
        "Ġp",
        "artial"
      ],
      [
        "Ġ",
        "4"
      ],
      [
        "o",
        "t"
      ],
      [
        "Ġm",
        "u"
      ],
      [
        "p",
        "ha"
      ],
      [
        "al",
        "t"
      ],
      [
        "g",
        "a"
      ],
      [
        "me",
        "ga"
      ],
      [
        "Ġal",
        "pha"
      ],
      [
        "Ġ\\",
        "]"
      ],
      [
        "Ġd",
        "ot"
      ],
      [
        "Ġ",
        "D"
      ],
      [
        "Ġ",
        "A"
      ],
      [
        "Ġ",
        "q"
      ],
      [
        "Ġ",
        "T"
      ],
      [
        "Ġ",
        "P"
      ],
      [
        "n",
        "e"
      ],
      [
        "Ġ\\",
        "["
      ],
      [
        "r",
        "ime"
      ],
      [
        "Ġp",
        "rime"
      ],
      [
        "Ġ",
        "y"
      ],
      [
        "Ġ",
        "N"
      ],
      [
        "Ġ",
        "R"
      ],
      [
        "Ġ",
        "L"
      ],
      [
        "am",
        "ma"
      ],
      [
        "ha",
        "t"
      ],
      [
        "i",
        "ld"
      ],
      [
        "ild",
        "e"
      ],
      [
        "h",
        "e"
      ],
      [
        "v",
        "ron"
      ],
      [
        "he",
        "vron"
      ],
      [
        "h",
        "eta"
      ],
      [
        "Ġp",
        "hi"
      ],
      [
        "d",
        "a"
      ],
      [
        "b",
        "da"
      ],
      [
        "am",
        "bda"
      ],
      [
        "Ġ",
        "S"
      ],
      [
        "Ġ",
        "B"
      ],
      [
        "ig",
        "ma"
      ],
      [
        "Ġ",
        "hat"
      ],
      [
        "Ġp",
        "i"
      ],
      [
        "Ġc",
        "hevron"
      ],
      [
        "Ġ",
        "v"
      ],
      [
        "i",
        "m"
      ],
      [
        "u",
        "m"
      ],
      [
        "ig",
        "n"
      ],
      [
        "no",
        "ne"
      ],
      [
        "Ġal",
        "ign"
      ],
      [
        "Ġdel",
        "im"
      ],
      [
        "Ġi",
        "n"
      ],
      [
        "Ġo",
        "mega"
      ],
      [
        "Ġt",
        "heta"
      ],
      [
        "Ġt",
        "ilde"
      ],
      [
        "o",
        "n"
      ],
      [
        "p",
        "si"
      ],
      [
        "Ġ",
        "G"
      ],
      [
        "Ġ",
        "E"
      ],
      [
        "Ġc",
        "al"
      ],
      [
        "Ġs",
        "um"
      ],
      [
        "e",
        "r"
      ],
      [
        "Ġn",
        "u"
      ],
      [
        "l",
        "on"
      ],
      [
        "h",
        "o"
      ],
      [
        "Ġ",
        ";"
      ],
      [
        "Ġ",
        "5"
      ],
      [
        "psi",
        "lon"
      ],
      [
        "q",
        "rt"
      ],
      [
        "u",
        "s"
      ],
      [
        "Ġ",
        "C"
      ],
      [
        "Ġ",
        "M"
      ],
      [
        "Ġs",
        "igma"
      ],
      [
        "Ġb",
        "eta"
      ],
      [
        "el",
        "ta"
      ],
      [
        "Ġ",
        "h"
      ],
      [
        "Ġl",
        "ambda"
      ],
      [
        "Ġs",
        "qrt"
      ],
      [
        "i",
        "n"
      ],
      [
        "Ġ",
        "F"
      ],
      [
        "Ġ",
        "H"
      ],
      [
        "Ġr",
        "ho"
      ],
      [
        "Ġe",
        "psilon"
      ],
      [
        "Ġdel",
        "ta"
      ],
      [
        "r",
        "al"
      ],
      [
        "Ġg",
        "amma"
      ],
      [
        "Ġt",
        "a"
      ],
      [
        "ac",
        "ron"
      ],
      [
        "Ġ",
        "V"
      ],
      [
        "Ġta",
        "u"
      ],
      [
        "Ġ",
        "w"
      ],
      [
        "e",
        "g"
      ],
      [
        "t",
        "eg"
      ],
      [
        "teg",
        "ral"
      ],
      [
        "Ġ",
        "I"
      ],
      [
        "Ġ",
        "X"
      ],
      [
        "Ġt",
        "hi"
      ],
      [
        "Ġ",
        "6"
      ],
      [
        "Ġm",
        "acron"
      ],
      [
        "Ġ",
        "O"
      ],
      [
        "Ġin",
        "tegral"
      ],
      [
        "r",
        "ro"
      ],
      [
        "rro",
        "w"
      ],
      [
        "ime",
        "s"
      ],
      [
        "Ġt",
        "imes"
      ],
      [
        "Ġ",
        "<"
      ],
      [
        "Ġp",
        "l"
      ],
      [
        "p",
        "p"
      ],
      [
        "Ġa",
        "rrow"
      ],
      [
        "Ġp",
        "si"
      ],
      [
        "ĠD",
        "elta"
      ],
      [
        "l",
        "e"
      ],
      [
        "Ġdot",
        "s"
      ],
      [
        "ma",
        "t"
      ],
      [
        "Ġ",
        "8"
      ],
      [
        "a",
        "t"
      ],
      [
        "Ġm",
        "at"
      ],
      [
        "Ġe",
        "ta"
      ],
      [
        "Ġ",
        "Q"
      ],
      [
        "Ġ",
        "U"
      ],
      [
        "Ġx",
        "i"
      ],
      [
        "Ġ",
        "K"
      ],
      [
        "Ġ\\",
        "}"
      ],
      [
        "Ġ\\",
        "{"
      ],
      [
        "f",
        "rac"
      ],
      [
        "o",
        "s"
      ],
      [
        "c",
        "k"
      ],
      [
        "in",
        "us"
      ],
      [
        "Ġ",
        "J"
      ],
      [
        "Ġpl",
        "us"
      ],
      [
        "Ġo",
        "o"
      ],
      [
        "Ġ",
        "7"
      ],
      [
        "i",
        "ne"
      ],
      [
        "l",
        "ine"
      ],
      [
        "er",
        "line"
      ],
      [
        "Ġthi",
        "n"
      ],
      [
        "m",
        "inus"
      ],
      [
        "f",
        "t"
      ],
      [
        "le",
        "ft"
      ],
      [
        "ĠG",
        "amma"
      ],
      [
        "l",
        "a"
      ],
      [
        "Ġ",
        ">"
      ],
      [
        "u",
        "a"
      ],
      [
        "ua",
        "d"
      ],
      [
        "Ġq",
        "uad"
      ],
      [
        "Ġ",
        "9"
      ],
      [
        "a",
        "pp"
      ],
      [
        "b",
        "old"
      ],
      [
        "app",
        "a"
      ],
      [
        "Ġ",
        "W"
      ],
      [
        "ĠO",
        "mega"
      ],
      [
        "a",
        "b"
      ],
      [
        "ab",
        "la"
      ],
      [
        "\\",
        "("
      ],
      [
        "v",
        "erline"
      ],
      [
        "Ġc",
        "os"
      ],
      [
        "Ġk",
        "appa"
      ],
      [
        "Ġs",
        "in"
      ],
      [
        "Ġ-",
        ">"
      ],
      [
        "Ġ",
        "Z"
      ],
      [
        "Ġ\\",
        ";"
      ],
      [
        "i",
        "v"
      ],
      [
        "Ġn",
        "abla"
      ],
      [
        "c",
        "al"
      ],
      [
        "Ġo",
        "verline"
      ],
      [
        "Ġb",
        "b"
      ],
      [
        "a",
        "n"
      ],
      [
        "l",
        "r"
      ],
      [
        "l",
        "l"
      ],
      [
        "Ġe",
        "ll"
      ],
      [
        "Ġ<",
        "="
      ],
      [
        "d",
        "e"
      ],
      [
        "g",
        "g"
      ],
      [
        "gg",
        "er"
      ],
      [
        "i",
        "de"
      ],
      [
        "ĠP",
        "hi"
      ],
      [
        "Ġd",
        "a"
      ],
      [
        "Ġda",
        "gger"
      ],
      [
        "Ġthi",
        "ck"
      ],
      [
        "Ġc",
        "hi"
      ],
      [
        "Ġ",
        "Y"
      ],
      [
        "q",
        "u"
      ],
      [
        "qu",
        "iv"
      ],
      [
        "Ġ",
        ":"
      ],
      [
        "ro",
        "x"
      ],
      [
        "Ġe",
        "quiv"
      ],
      [
        "t",
        "ilde"
      ],
      [
        "Ġ|",
        "|"
      ],
      [
        "Ġa",
        "pp"
      ],
      [
        "Ġapp",
        "rox"
      ],
      [
        "u",
        "pright"
      ],
      [
        "ĠL",
        "ambda"
      ],
      [
        "x",
        "p"
      ],
      [
        "Ġz",
        "eta"
      ],
      [
        "Ġ",
        "!"
      ],
      [
        "ĠP",
        "si"
      ],
      [
        "Ġe",
        "xp"
      ],
      [
        "Ġw",
        "ide"
      ],
      [
        "D",
        "elta"
      ],
      [
        "t",
        "er"
      ],
      [
        "Ġpl",
        "an"
      ],
      [
        "Ġplan",
        "ck"
      ],
      [
        "Ġl",
        "n"
      ],
      [
        "n",
        "d"
      ],
      [
        "c",
        "e"
      ],
      [
        "n",
        "ter"
      ],
      [
        "ce",
        "nter"
      ],
      [
        "u",
        "b"
      ],
      [
        "Ġp",
        "ro"
      ],
      [
        "d",
        "o"
      ],
      [
        "d",
        "elta"
      ],
      [
        "c",
        "hevron"
      ],
      [
        "Ġ>",
        "="
      ],
      [
        "o",
        "g"
      ],
      [
        "ĠS",
        "igma"
      ],
      [
        "Ġl",
        "og"
      ],
      [
        "s",
        "t"
      ],
      [
        "p",
        "hi"
      ],
      [
        "er",
        "p"
      ],
      [
        "Ġp",
        "erp"
      ],
      [
        "\\",
        "["
      ],
      [
        "ub",
        "le"
      ],
      [
        "do",
        "uble"
      ],
      [
        "e",
        "q"
      ],
      [
        "Ġo",
        "p"
      ],
      [
        "s",
        "igma"
      ],
      [
        "u",
        "c"
      ],
      [
        "d",
        "uc"
      ],
      [
        "duc",
        "t"
      ],
      [
        "al",
        "pha"
      ],
      [
        "r",
        "ho"
      ],
      [
        "ral",
        "l"
      ],
      [
        "Ġa",
        "nd"
      ],
      [
        "Ġc",
        "o"
      ],
      [
        "\\",
        "{"
      ],
      [
        "Ġa",
        "st"
      ],
      [
        "s",
        "um"
      ],
      [
        "o",
        "mega"
      ],
      [
        "m",
        "p"
      ],
      [
        "e",
        "psilon"
      ],
      [
        "Ġpro",
        "duct"
      ],
      [
        "os",
        "e"
      ],
      [
        "Ġco",
        "mp"
      ],
      [
        "Ġcomp",
        "ose"
      ],
      [
        "l",
        "ambda"
      ],
      [
        "ĠP",
        "i"
      ],
      [
        "Ġd",
        "iv"
      ],
      [
        "Ġ",
        "\""
      ],
      [
        "in",
        "tegral"
      ],
      [
        "r",
        "ak"
      ],
      [
        "ĠT",
        "heta"
      ],
      [
        "p",
        "artial"
      ],
      [
        "ta",
        "r"
      ],
      [
        "m",
        "acron"
      ],
      [
        "Ġ!",
        "="
      ],
      [
        "Ġs",
        "tar"
      ],
      [
        "g",
        "amma"
      ],
      [
        "ide",
        "s"
      ],
      [
        "Ġ_",
        "("
      ],
      [
        "Ġdiv",
        "ides"
      ],
      [
        "Ġl",
        "t"
      ],
      [
        "d",
        "ot"
      ],
      [
        "ta",
        "u"
      ],
      [
        "m",
        "u"
      ],
      [
        "Ġf",
        "rak"
      ],
      [
        "Ġ\\",
        "*"
      ],
      [
        "o",
        "p"
      ],
      [
        "G",
        "amma"
      ],
      [
        "a",
        "rall"
      ],
      [
        "arall",
        "el"
      ],
      [
        "Ġp",
        "arallel"
      ],
      [
        "z",
        "ws"
      ],
      [
        "b",
        "eta"
      ],
      [
        "nd",
        "erline"
      ],
      [
        "an",
        "s"
      ],
      [
        "Ġs",
        "ans"
      ],
      [
        "-",
        ">"
      ],
      [
        "t",
        "heta"
      ],
      [
        "a",
        "rrow"
      ],
      [
        "Ġpro",
        "p"
      ],
      [
        "Ġ",
        "'"
      ],
      [
        "O",
        "mega"
      ],
      [
        "Ġ",
        "â"
      ],
      [
        "Ġu",
        "nderline"
      ],
      [
        "e",
        "t"
      ],
      [
        "s",
        "qrt"
      ],
      [
        "o",
        "verline"
      ],
      [
        "c",
        "hi"
      ],
      [
        "l",
        "us"
      ],
      [
        "p",
        "lus"
      ],
      [
        "P",
        "hi"
      ],
      [
        "Ġ^",
        "("
      ],
      [
        "x",
        "i"
      ],
      [
        "n",
        "abla"
      ],
      [
        "s",
        "et"
      ],
      [
        "Ġsin",
        "h"
      ],
      [
        "b",
        "b"
      ],
      [
        "Ġâ",
        "Į"
      ],
      [
        "Ġm",
        "inus"
      ],
      [
        "Ġg",
        "t"
      ],
      [
        "Ġta",
        "n"
      ],
      [
        "k",
        "appa"
      ],
      [
        "n",
        "u"
      ],
      [
        "Ġcos",
        "h"
      ],
      [
        "ub",
        "set"
      ],
      [
        "i",
        "on"
      ],
      [
        "Ġs",
        "ubset"
      ],
      [
        "e",
        "d"
      ],
      [
        "n",
        "ion"
      ],
      [
        "P",
        "si"
      ],
      [
        "Ġu",
        "nion"
      ],
      [
        "i",
        "no"
      ],
      [
        "ino",
        "m"
      ],
      [
        "o",
        "rall"
      ],
      [
        "p",
        "i"
      ],
      [
        "Ġ<",
        "-"
      ],
      [
        "Ġin",
        "ter"
      ],
      [
        "i",
        "t"
      ],
      [
        "i",
        "f"
      ],
      [
        "a",
        "ron"
      ],
      [
        "Ġ|",
        "->"
      ],
      [
        "z",
        "eta"
      ],
      [
        "Ġb",
        "inom"
      ],
      [
        "w",
        "n"
      ],
      [
        "Ġt",
        "op"
      ],
      [
        "do",
        "wn"
      ],
      [
        "an",
        "d"
      ],
      [
        "i",
        "c"
      ],
      [
        "al",
        "ic"
      ],
      [
        "Ġ)",
        "|"
      ],
      [
        "L",
        "ambda"
      ],
      [
        "s",
        "la"
      ],
      [
        "k",
        "ed"
      ],
      [
        "ta",
        "n"
      ],
      [
        "ro",
        "ked"
      ],
      [
        "st",
        "roked"
      ],
      [
        "r",
        "i"
      ],
      [
        "c",
        "on"
      ],
      [
        "con",
        "t"
      ],
      [
        "g",
        "le"
      ],
      [
        "Ġm",
        "o"
      ],
      [
        "si",
        "n"
      ],
      [
        "Ġc",
        "aron"
      ],
      [
        "Ġf",
        "orall"
      ],
      [
        "ĠX",
        "i"
      ],
      [
        "o",
        "ta"
      ],
      [
        "Ġa",
        "r"
      ],
      [
        "b",
        "ig"
      ],
      [
        "o",
        "r"
      ],
      [
        "t",
        "alic"
      ],
      [
        "Ġi",
        "talic"
      ],
      [
        "Ġ)",
        "\\"
      ],
      [
        "Ġ",
        "%"
      ],
      [
        "S",
        "igma"
      ],
      [
        "an",
        "gle"
      ],
      [
        "P",
        "i"
      ],
      [
        "Ġ)",
        ")"
      ],
      [
        "ri",
        "angle"
      ],
      [
        "el",
        "l"
      ],
      [
        "Ġi",
        "ota"
      ],
      [
        "e",
        "quiv"
      ],
      [
        "Ġc",
        "ot"
      ],
      [
        "s",
        "s"
      ],
      [
        "le",
        "ss"
      ],
      [
        "Ġb",
        "ot"
      ],
      [
        "Ġdot",
        "less"
      ],
      [
        "|",
        "|"
      ],
      [
        "u",
        "t"
      ],
      [
        "Ġo",
        "r"
      ],
      [
        "Ġ<",
        "->"
      ],
      [
        "Ġar",
        "c"
      ],
      [
        "^",
        "("
      ],
      [
        "f",
        "or"
      ],
      [
        "n",
        "t"
      ],
      [
        "Ġ-",
        "->"
      ],
      [
        "Ġt",
        "riangle"
      ],
      [
        "c",
        "os"
      ],
      [
        "Ġn",
        "ot"
      ],
      [
        "s",
        "h"
      ],
      [
        "Ġmo",
        "no"
      ],
      [
        "sla",
        "nt"
      ],
      [
        "ho",
        "ut"
      ],
      [
        "it",
        "hout"
      ],
      [
        "Ġw",
        "ithout"
      ],
      [
        "l",
        "le"
      ],
      [
        "f",
        "rak"
      ],
      [
        "T",
        "heta"
      ],
      [
        "u",
        "lle"
      ],
      [
        "ulle",
        "t"
      ],
      [
        "Ġb",
        "ullet"
      ],
      [
        "Ġl",
        "im"
      ],
      [
        "ac",
        "k"
      ],
      [
        "Ġarc",
        "tan"
      ],
      [
        "p",
        "ro"
      ],
      [
        "e",
        "xp"
      ],
      [
        "re",
        "v"
      ],
      [
        "Ġ=",
        ">"
      ],
      [
        "l",
        "n"
      ],
      [
        "ĠâĮ",
        "ĭ"
      ],
      [
        "Ġ)\\",
        ")"
      ],
      [
        "Ġm",
        "ed"
      ],
      [
        "Ġ)",
        "\\("
      ],
      [
        "ĠâĮ",
        "Ĭ"
      ],
      [
        "app",
        "rox"
      ],
      [
        "Ġ)",
        "^("
      ],
      [
        "pro",
        "duct"
      ],
      [
        "l",
        "og"
      ],
      [
        "=",
        ">"
      ],
      [
        "_",
        "("
      ],
      [
        "ĠU",
        "psilon"
      ],
      [
        "it",
        "s"
      ],
      [
        "sla",
        "sh"
      ],
      [
        "ack",
        "slash"
      ],
      [
        "Ġb",
        "ackslash"
      ],
      [
        "ĠR",
        "e"
      ],
      [
        "k",
        "et"
      ],
      [
        "rac",
        "ket"
      ],
      [
        "ĠâĮ",
        "ī"
      ],
      [
        "no",
        "t"
      ],
      [
        "Ġb",
        "rev"
      ],
      [
        "Ġbrev",
        "e"
      ],
      [
        "Ġd",
        "et"
      ],
      [
        "Ġ\\",
        "\""
      ],
      [
        "Ġco",
        "lon"
      ],
      [
        "f",
        "orall"
      ],
      [
        "p",
        "la"
      ],
      [
        "t",
        "imes"
      ],
      [
        "Ġ)\\",
        ","
      ],
      [
        "Ġlim",
        "its"
      ],
      [
        "n",
        "g"
      ],
      [
        "Ġ)",
        "_("
      ],
      [
        "hi",
        "ng"
      ],
      [
        "Ġ\\",
        "_"
      ],
      [
        "e",
        "c"
      ],
      [
        "o",
        "ot"
      ],
      [
        "Ġr",
        "oot"
      ],
      [
        "ĠâĮ",
        "Ī"
      ],
      [
        "i",
        "s"
      ],
      [
        "Ġnot",
        "hing"
      ],
      [
        "Ġu",
        "psilon"
      ],
      [
        "Ġ",
        "ha"
      ],
      [
        "Ġmo",
        "d"
      ],
      [
        "n",
        "ck"
      ],
      [
        "Ġ)",
        "="
      ],
      [
        "Ġb",
        "racket"
      ],
      [
        "pla",
        "nck"
      ],
      [
        "Ġ=",
        "=>"
      ],
      [
        "st",
        "s"
      ],
      [
        "Ġâ",
        "Ĭ"
      ],
      [
        "Ġâ",
        "Ļ"
      ],
      [
        "xi",
        "sts"
      ],
      [
        "m",
        "al"
      ],
      [
        "s",
        "mal"
      ],
      [
        "smal",
        "l"
      ],
      [
        "u",
        "nderline"
      ],
      [
        "Ġs",
        "ec"
      ],
      [
        "\\",
        ","
      ],
      [
        "dot",
        "s"
      ],
      [
        "r",
        "w"
      ],
      [
        "he",
        "rw"
      ],
      [
        "lon",
        "g"
      ],
      [
        "is",
        "e"
      ],
      [
        "herw",
        "ise"
      ],
      [
        "ot",
        "herwise"
      ],
      [
        "Ġcot",
        "h"
      ],
      [
        "u",
        "p"
      ],
      [
        "a",
        "r"
      ],
      [
        "Ħ",
        "ĺ"
      ],
      [
        "Ġha",
        "sh"
      ],
      [
        "up",
        "set"
      ],
      [
        "w",
        "he"
      ],
      [
        "Ġe",
        "q"
      ],
      [
        "ĠâĬ",
        "º"
      ],
      [
        "s",
        "c"
      ],
      [
        "Ġ)",
        ","
      ],
      [
        "ĠI",
        "m"
      ],
      [
        "b",
        "inom"
      ],
      [
        "Ġ\\)",
        "|"
      ],
      [
        "Ġs",
        "upset"
      ],
      [
        "Ġar",
        "g"
      ],
      [
        "c",
        "aron"
      ],
      [
        "whe",
        "re"
      ],
      [
        "\\",
        ")"
      ],
      [
        "Ġ<=",
        ">"
      ],
      [
        "Ġâ",
        "Ħĺ"
      ],
      [
        "Ġ)",
        "-"
      ],
      [
        "ri",
        "p"
      ],
      [
        "ĠâĻ",
        "¯"
      ],
      [
        "Ġ)",
        "+"
      ],
      [
        "Ġ\\)",
        ")"
      ],
      [
        "Ġt",
        "ack"
      ],
      [
        "it",
        "alic"
      ],
      [
        "l",
        "im"
      ],
      [
        "Ġe",
        "xists"
      ],
      [
        "X",
        "i"
      ],
      [
        "s",
        "q"
      ],
      [
        "Ġarc",
        "sin"
      ],
      [
        "c",
        "ot"
      ],
      [
        "g",
        "t"
      ],
      [
        "d",
        "iv"
      ],
      [
        "e",
        "p"
      ],
      [
        "Ġin",
        "line"
      ],
      [
        "ep",
        "h"
      ],
      [
        "t",
        "riangle"
      ],
      [
        "Ġd",
        "im"
      ],
      [
        "div",
        "ides"
      ],
      [
        "<",
        "="
      ],
      [
        "l",
        "t"
      ],
      [
        "n",
        "gle"
      ],
      [
        "Ġ)",
        "."
      ],
      [
        "Ġc",
        "sc"
      ],
      [
        "Ġa",
        "ngle"
      ],
      [
        "Ġâ",
        "ī"
      ],
      [
        "Ġ\\)",
        "="
      ],
      [
        "pro",
        "p"
      ],
      [
        "b",
        "ar"
      ],
      [
        "i",
        "ota"
      ],
      [
        "re",
        "c"
      ],
      [
        "Ġ^(",
        "-"
      ],
      [
        "Ġâī",
        "Ĳ"
      ],
      [
        "ua",
        "re"
      ],
      [
        "e",
        "xists"
      ],
      [
        "i",
        "am"
      ],
      [
        "â",
        "Į"
      ],
      [
        "Ġal",
        "eph"
      ],
      [
        "on",
        "d"
      ],
      [
        "iam",
        "ond"
      ],
      [
        "t",
        "rip"
      ],
      [
        "trip",
        "le"
      ],
      [
        "U",
        "psilon"
      ],
      [
        "o",
        "k"
      ],
      [
        "v",
        "e"
      ],
      [
        "Ġp",
        "rec"
      ],
      [
        "Ġd",
        "iamond"
      ],
      [
        "ho",
        "ok"
      ],
      [
        "Ġ<=",
        "=>"
      ],
      [
        "R",
        "e"
      ],
      [
        "p",
        "o"
      ],
      [
        "ac",
        "ut"
      ],
      [
        "Ġ^(",
        "\\("
      ],
      [
        "ar",
        "c"
      ],
      [
        "sq",
        "uare"
      ],
      [
        "acut",
        "e"
      ],
      [
        "r",
        "po"
      ],
      [
        "da",
        "gger"
      ],
      [
        "Ġ))",
        "|"
      ],
      [
        "ĠâĻ",
        "Ń"
      ],
      [
        "rpo",
        "on"
      ],
      [
        "Ġ\\",
        "@"
      ],
      [
        "Ġ<-",
        "->"
      ],
      [
        "b",
        "racket"
      ],
      [
        "d",
        "im"
      ],
      [
        "Ġ",
        "acute"
      ],
      [
        "o",
        "o"
      ],
      [
        "Ġ\\)",
        "^("
      ],
      [
        "Ġk",
        "er"
      ],
      [
        "uc",
        "c"
      ],
      [
        "Ġ))",
        "\\,"
      ],
      [
        "Ġ)\\)",
        "^("
      ],
      [
        "I",
        "m"
      ],
      [
        "de",
        "t"
      ],
      [
        "Ġ_(",
        "-"
      ],
      [
        "Ġ)\\,",
        "|"
      ],
      [
        "rip",
        "t"
      ],
      [
        "arc",
        "tan"
      ],
      [
        "m",
        "o"
      ],
      [
        "p",
        "rime"
      ],
      [
        "s",
        "ec"
      ],
      [
        "t",
        "ion"
      ],
      [
        "Ġd",
        "eg"
      ],
      [
        "ne",
        "q"
      ],
      [
        "\\",
        "*"
      ],
      [
        "\\",
        "/"
      ],
      [
        "l",
        "b"
      ],
      [
        "Ġa",
        "mp"
      ],
      [
        "Ġ)\\)",
        ")"
      ],
      [
        "Ġ)\\)",
        "|"
      ],
      [
        "Ġha",
        "rpoon"
      ],
      [
        "c",
        "o"
      ],
      [
        "Ġd",
        "is"
      ],
      [
        "rt",
        "lb"
      ],
      [
        "rro",
        "ws"
      ],
      [
        "Ġ'",
        "^("
      ],
      [
        "Ġ^(",
        "'"
      ],
      [
        "pla",
        "y"
      ],
      [
        "mo",
        "no"
      ],
      [
        "Ġdis",
        "play"
      ],
      [
        "q",
        "uad"
      ],
      [
        "s",
        "tar"
      ],
      [
        "u",
        "nion"
      ],
      [
        "sin",
        "h"
      ],
      [
        "Ġ))",
        ")"
      ],
      [
        "cos",
        "h"
      ],
      [
        "âĮ",
        "Ī"
      ],
      [
        "\\*",
        ")"
      ],
      [
        "Ġharpoon",
        "s"
      ],
      [
        "'",
        ")"
      ],
      [
        ">",
        "="
      ],
      [
        "r",
        "l"
      ],
      [
        "u",
        "psilon"
      ],
      [
        "Ġs",
        "ucc"
      ],
      [
        "bre",
        "ve"
      ],
      [
        "ha",
        "sh"
      ],
      [
        "el",
        "s"
      ],
      [
        "Ġ))",
        "'"
      ],
      [
        "Ġsec",
        "tion"
      ],
      [
        "(",
        "\\("
      ],
      [
        "c",
        "ro"
      ],
      [
        "l",
        "cro"
      ],
      [
        "Ġs",
        "sc"
      ],
      [
        "ro",
        "ot"
      ],
      [
        "in",
        "ter"
      ],
      [
        "Ġ^('",
        "')"
      ],
      [
        "lcro",
        "w"
      ],
      [
        "Ġssc",
        "ript"
      ],
      [
        "c",
        "sc"
      ],
      [
        "s",
        "pace"
      ],
      [
        "Ġ\\)",
        "+"
      ],
      [
        "Ġa",
        "rrows"
      ],
      [
        "Ġpi",
        "lcrow"
      ],
      [
        "dot",
        "less"
      ],
      [
        "Ġ'",
        "\\,"
      ],
      [
        "Ġ))",
        "."
      ],
      [
        "ĠâĬ",
        "©"
      ],
      [
        "d",
        "eg"
      ],
      [
        "â",
        "Ħĺ"
      ],
      [
        "Ġ\\)",
        "-"
      ],
      [
        "Ġ\\)",
        "\\)"
      ],
      [
        "in",
        "line"
      ],
      [
        "Ġ'",
        "\\)"
      ],
      [
        "Ġ))",
        "="
      ],
      [
        "Ġ)\\)",
        "."
      ],
      [
        "Ġ)\\)",
        "="
      ],
      [
        "Ġmod",
        "els"
      ],
      [
        "Ġ),",
        "|"
      ],
      [
        "lim",
        "its"
      ],
      [
        "âĮ",
        "Ĭ"
      ],
      [
        "â",
        "ī"
      ],
      [
        "Ġ)",
        "'"
      ],
      [
        "Ġ)",
        ">"
      ],
      [
        "Ġ)",
        "\\["
      ],
      [
        "al",
        "eph"
      ],
      [
        "Ġ'",
        "'"
      ],
      [
        "Ġ<-",
        "-"
      ],
      [
        "Ġ))",
        "_("
      ],
      [
        "not",
        "hing"
      ],
      [
        "Ġ))'",
        "\\,"
      ],
      [
        "I",
        "F"
      ],
      [
        "k",
        "er"
      ],
      [
        "l",
        "ve"
      ],
      [
        "o",
        "lve"
      ],
      [
        "s",
        "ubset"
      ],
      [
        "v",
        "olve"
      ],
      [
        "â",
        "Ī"
      ],
      [
        "â",
        "Ĭ"
      ],
      [
        "Ġ\\,",
        "|"
      ],
      [
        "me",
        "nt"
      ],
      [
        "le",
        "ment"
      ],
      [
        "Ġ^(",
        "\\*)"
      ],
      [
        "Ġ))",
        "\\)"
      ],
      [
        "whe",
        "n"
      ],
      [
        "co",
        "mp"
      ],
      [
        "âĪ",
        "ļ"
      ],
      [
        "(",
        "|"
      ],
      [
        "\\",
        ";"
      ],
      [
        "\\",
        "]"
      ],
      [
        "a",
        "st"
      ],
      [
        "c",
        "ript"
      ],
      [
        "p",
        "rec"
      ],
      [
        "q",
        "uare"
      ],
      [
        "s",
        "ans"
      ],
      [
        "s",
        "upset"
      ],
      [
        "s",
        "ucc"
      ],
      [
        "w",
        "ide"
      ],
      [
        "Ġ\\",
        "âĪļ"
      ],
      [
        "Ġ\\)",
        ","
      ],
      [
        "Ġs",
        "cript"
      ],
      [
        "Ġs",
        "quare"
      ],
      [
        "Ġm",
        "in"
      ],
      [
        "Ġc",
        "on"
      ],
      [
        "ha",
        "rpoon"
      ],
      [
        "\\(",
        "<"
      ],
      [
        "Ġ_(",
        "+"
      ],
      [
        "Ġ)\\",
        "]"
      ],
      [
        "Ġ)^(",
        "\\("
      ],
      [
        "Ġ\\))",
        "="
      ],
      [
        "Ġ\\))",
        "|"
      ],
      [
        "Ġ\\))",
        "\\("
      ],
      [
        "Ġ)))",
        "\\(<"
      ],
      [
        "Ġ))_(",
        "-"
      ],
      [
        "Ġcon",
        "volve"
      ],
      [
        "a",
        "d"
      ],
      [
        "f",
        "i"
      ],
      [
        "i",
        "l"
      ],
      [
        "o",
        "he"
      ],
      [
        "r",
        "k"
      ],
      [
        "t",
        "w"
      ],
      [
        "t",
        "ack"
      ],
      [
        "ª",
        "ħ"
      ],
      [
        "Ġ\\)",
        "."
      ],
      [
        "ta",
        "il"
      ],
      [
        "ma",
        "rk"
      ],
      [
        "he",
        "ck"
      ],
      [
        "et",
        "h"
      ],
      [
        "Ġ^(",
        "+"
      ],
      [
        "Ġ)|",
        "|"
      ],
      [
        "lle",
        "d"
      ],
      [
        "Ġ)^(",
        "-"
      ],
      [
        "Ġ),",
        "\\("
      ],
      [
        "arc",
        "sin"
      ],
      [
        "fi",
        "lled"
      ],
      [
        "ohe",
        "ad"
      ],
      [
        "tw",
        "ohead"
      ],
      [
        "heck",
        "mark"
      ],
      [
        "(",
        "-"
      ],
      [
        "a",
        "ve"
      ],
      [
        "a",
        "rrows"
      ],
      [
        "d",
        "iamond"
      ],
      [
        "p",
        "arallel"
      ],
      [
        "t",
        "ri"
      ],
      [
        "â",
        "ª"
      ],
      [
        "â",
        "Ħ"
      ],
      [
        "Ġ",
        "?"
      ],
      [
        "ĭ",
        "Ī"
      ],
      [
        "Ġ\\)",
        "\\("
      ],
      [
        "Ġ\\)",
        "\\,"
      ],
      [
        "Ġ\\)",
        "\\]"
      ],
      [
        "Ġ\\,",
        "-"
      ],
      [
        "Ġc",
        "heckmark"
      ],
      [
        "ĠC",
        "hi"
      ],
      [
        "Ġcomp",
        "lement"
      ],
      [
        "Ġ'",
        "|"
      ],
      [
        "Ġ'",
        "\\;"
      ],
      [
        "Ġâ",
        "ªħ"
      ],
      [
        "Ġ))",
        "\\("
      ],
      [
        "Ġ))",
        "^("
      ],
      [
        "Ġ)^(",
        "\\*)"
      ],
      [
        "ĠâĻ",
        "®"
      ],
      [
        "ar",
        "g"
      ],
      [
        "cot",
        "h"
      ],
      [
        "sec",
        "tion"
      ],
      [
        "Ġ)\\))",
        "\\,"
      ],
      [
        "Ġ^('')",
        "+"
      ],
      [
        "Ġ'\\)",
        "="
      ],
      [
        "Ġ'\\)",
        "^("
      ],
      [
        "comp",
        "ose"
      ],
      [
        "!",
        "="
      ],
      [
        ")",
        "\\("
      ],
      [
        "<",
        "=>"
      ],
      [
        "b",
        "r"
      ],
      [
        "b",
        "ullet"
      ],
      [
        "c",
        "w"
      ],
      [
        "c",
        "le"
      ],
      [
        "f",
        "o"
      ],
      [
        "h",
        "al"
      ],
      [
        "i",
        "r"
      ],
      [
        "r",
        "ave"
      ],
      [
        "t",
        "r"
      ],
      [
        "u",
        "it"
      ],
      [
        "â",
        "Ļ"
      ],
      [
        "Ġ,",
        "|"
      ],
      [
        "Ġ,",
        "\\("
      ],
      [
        "Ġb",
        "eth"
      ],
      [
        "Ġl",
        "g"
      ],
      [
        "re",
        "at"
      ],
      [
        "re",
        "fo"
      ],
      [
        "Ġg",
        "rave"
      ],
      [
        "Ġ\\]",
        "_("
      ],
      [
        "he",
        "refo"
      ],
      [
        "Ġ'",
        "\\("
      ],
      [
        "Ġâ",
        "ĭĪ"
      ],
      [
        "ĠâĮ",
        "£"
      ],
      [
        "Ġ)\\",
        "}"
      ],
      [
        "Ġ))",
        "-"
      ],
      [
        "Ġ)\\)",
        "-"
      ],
      [
        "Ġ)\\)",
        "\\("
      ],
      [
        "Ġ)\\)",
        "\\,"
      ],
      [
        "\\)",
        "|"
      ],
      [
        "Ġ\\))",
        "\\,"
      ],
      [
        "Ġ\\)\\)",
        "^("
      ],
      [
        "comp",
        "lement"
      ],
      [
        "âĦ",
        "¸"
      ],
      [
        "Ġ)^(\\*)",
        "\\)"
      ],
      [
        "hal",
        "f"
      ],
      [
        "ir",
        "cle"
      ],
      [
        "reat",
        "h"
      ],
      [
        "herefo",
        "re"
      ],
      [
        ")",
        "."
      ],
      [
        ",",
        "|"
      ],
      [
        "<",
        "-"
      ],
      [
        "=",
        "=>"
      ],
      [
        "N",
        "u"
      ],
      [
        "\\",
        "_"
      ],
      [
        "a",
        "x"
      ],
      [
        "a",
        "de"
      ],
      [
        "b",
        "l"
      ],
      [
        "b",
        "eth"
      ],
      [
        "c",
        "u"
      ],
      [
        "c",
        "ircle"
      ],
      [
        "g",
        "l"
      ],
      [
        "h",
        "re"
      ],
      [
        "l",
        "o"
      ],
      [
        "n",
        "tilde"
      ],
      [
        "n",
        "approx"
      ],
      [
        "p",
        "ade"
      ],
      [
        "s",
        "qu"
      ],
      [
        "s",
        "uit"
      ],
      [
        "s",
        "pade"
      ],
      [
        "t",
        "l"
      ],
      [
        "t",
        "hre"
      ],
      [
        "u",
        "nd"
      ],
      [
        "y",
        "right"
      ],
      [
        "©",
        "ŀ"
      ],
      [
        "«",
        "ħ"
      ],
      [
        "Ã",
        "Ĩ"
      ],
      [
        "â",
        "Ĩ"
      ],
      [
        "Ġ",
        "ÃĨ"
      ],
      [
        "ķ",
        "²"
      ],
      [
        "ig",
        "gl"
      ],
      [
        "Ġt",
        "herefore"
      ],
      [
        "Ġm",
        "ax"
      ],
      [
        "Ġ\\]",
        "|"
      ],
      [
        "ne",
        "quiv"
      ],
      [
        "ho",
        "m"
      ],
      [
        "in",
        "v"
      ],
      [
        "Ġw",
        "reath"
      ],
      [
        "Ġda",
        "sh"
      ],
      [
        "Ġ\\*",
        "\\,"
      ],
      [
        "Ġâ",
        "ķ²"
      ],
      [
        "Ġ)\\",
        "/"
      ],
      [
        "ĠâĬ",
        "ĺ"
      ],
      [
        "Ġ),",
        "||"
      ],
      [
        "Ġ\\))",
        "\\)|"
      ],
      [
        "Ġâī",
        "į"
      ],
      [
        "Ġ^(\\(",
        "-"
      ],
      [
        "Ġ)\\)^(",
        "-"
      ],
      [
        "mo",
        "d"
      ],
      [
        "Ġ)\\))",
        "\\("
      ],
      [
        "Ġ)))",
        "|"
      ],
      [
        "rl",
        "y"
      ],
      [
        "els",
        "e"
      ],
      [
        "Ġ^('')",
        "\\("
      ],
      [
        "Ġ\\)-",
        "->"
      ],
      [
        "Ġ\\)\\)",
        "="
      ],
      [
        "Ġ)'",
        "-"
      ],
      [
        "Ġ''",
        "="
      ],
      [
        "Ġ''",
        "\\("
      ],
      [
        "Ġ''",
        "\\["
      ],
      [
        "Ġ))\\)",
        "|"
      ],
      [
        "harpoon",
        "s"
      ],
      [
        "Ġ\\)\\)^(",
        "\\["
      ],
      [
        "cu",
        "rly"
      ],
      [
        "lo",
        "op"
      ],
      [
        "squ",
        "iggl"
      ],
      [
        "thre",
        "e"
      ],
      [
        "squiggl",
        "y"
      ]
    ]
  }
}